{"Vocab":{},"Merges":{"10,10":271,"10,324":808,"10,410":957,"10,418":709,"10,65":955,"100,10":539,"100,101":543,"100,105":404,"100,111":681,"100,117":831,"100,261":346,"100,263":580,"100,265":952,"100,269":497,"100,277":715,"100,280":849,"100,286":553,"100,32":260,"100,320":825,"100,437":981,"101,10":394,"101,100":424,"101,101":326,"101,102":760,"101,108":401,"101,109":416,"101,110":270,"101,112":704,"101,114":263,"101,115":280,"101,116":453,"101,118":763,"101,120":676,"101,121":624,"101,258":448,"101,259":345,"101,260":340,"101,261":302,"101,270":794,"101,272":314,"101,275":388,"101,277":452,"101,278":438,"101,308":766,"101,32":256,"101,325":693,"101,331":966,"101,353":976,"101,39":843,"101,504":771,"101,907":951,"101,97":286,"101,99":814,"102,105":856,"102,268":300,"102,314":897,"102,335":712,"102,439":561,"102,465":650,"102,97":355,"103,101":737,"103,104":318,"103,111":807,"103,117":954,"103,256":820,"103,269":926,"103,330":738,"103,409":886,"103,429":565,"103,562":804,"104,256":398,"104,263":478,"104,279":432,"104,285":925,"104,286":621,"104,314":525,"104,315":423,"104,322":830,"104,344":929,"104,97":276,"105,100":440,"105,102":415,"105,103":579,"105,108":383,"105,109":315,"105,110":264,"105,112":945,"105,114":299,"105,115":320,"105,116":316,"105,118":733,"105,122":864,"105,257":303,"105,258":342,"105,259":279,"105,260":614,"105,274":412,"105,275":387,"105,294":427,"105,296":635,"105,301":562,"105,308":425,"105,318":419,"105,381":656,"105,99":595,"106,111":839,"107,256":349,"107,291":511,"107,386":500,"108,101":321,"108,105":306,"108,108":275,"108,111":380,"108,121":947,"108,256":411,"108,260":337,"108,265":428,"108,268":694,"108,286":512,"108,317":540,"108,417":877,"108,426":568,"108,482":898,"108,508":913,"108,97":341,"109,101":594,"109,111":527,"109,256":378,"109,265":328,"109,266":444,"109,268":464,"109,270":842,"109,272":819,"109,362":949,"109,557":873,"109,564":935,"109,97":366,"110,101":436,"110,103":827,"110,111":298,"110,269":466,"110,285":386,"110,508":996,"110,97":986,"111,100":654,"111,102":289,"111,108":403,"111,109":292,"111,110":274,"111,111":317,"111,112":516,"111,114":268,"111,117":262,"111,119":285,"111,257":480,"111,258":944,"111,261":485,"111,275":962,"111,310":881,"111,32":269,"111,337":625,"111,368":834,"111,379":697,"111,39":798,"112,101":991,"112,111":460,"112,112":662,"112,114":586,"112,263":582,"112,330":860,"112,341":796,"112,343":607,"112,449":934,"113,117":461,"114,101":309,"114,105":335,"114,111":343,"114,117":414,"114,121":982,"114,265":699,"114,266":551,"114,270":997,"114,280":449,"114,285":575,"114,286":390,"114,292":439,"114,431":746,"114,482":978,"114,97":330,"115,10":472,"115,101":305,"115,104":365,"115,111":651,"115,112":473,"115,115":985,"115,116":296,"115,117":489,"115,119":563,"115,256":379,"115,258":310,"115,261":377,"115,269":522,"115,274":560,"115,276":456,"115,277":502,"115,299":501,"115,32":259,"115,499":902,"115,97":554,"115,99":980,"116,10":576,"116,104":257,"116,111":529,"116,116":652,"116,119":861,"116,261":392,"116,263":406,"116,269":283,"116,315":664,"116,32":258,"116,322":903,"116,340":993,"116,388":941,"116,414":657,"116,510":828,"117,108":465,"117,109":629,"117,110":347,"117,112":421,"117,114":333,"117,115":441,"117,116":490,"117,258":336,"117,259":505,"117,294":557,"117,296":850,"117,310":564,"117,318":701,"117,379":802,"118,105":793,"118,111":745,"118,256":301,"118,263":396,"118,270":470,"119,104":382,"119,256":538,"119,268":515,"119,272":643,"119,303":356,"119,334":608,"119,344":685,"119,354":604,"119,387":711,"119,388":626,"119,393":735,"119,425":675,"119,656":990,"121,10":602,"121,261":350,"121,262":281,"121,277":806,"121,32":265,"121,448":744,"121,506":759,"256,283":591,"257,101":363,"257,256":295,"257,262":376,"257,263":368,"257,265":462,"257,266":774,"257,270":684,"257,279":476,"257,291":789,"257,311":361,"257,319":983,"257,322":728,"257,552":909,"259,283":912,"259,284":736,"259,289":915,"259,339":987,"261,284":503,"261,328":764,"262,108":578,"262,110":443,"262,114":323,"262,115":833,"262,258":601,"262,259":537,"262,318":597,"262,337":393,"263,101":556,"263,118":609,"263,256":344,"263,32":322,"264,100":666,"264,103":291,"264,107":552,"264,256":577,"264,260":772,"264,304":707,"264,32":550,"264,372":961,"266,100":417,"266,103":631,"266,116":616,"266,258":906,"266,260":284,"266,265":719,"266,32":555,"266,346":965,"267,307":963,"267,65":822,"267,78":862,"267,83":968,"268,100":426,"268,110":870,"268,116":893,"268,256":821,"268,260":910,"268,32":600,"270,100":495,"270,116":362,"270,258":526,"270,260":637,"270,32":535,"270,364":708,"270,372":714,"272,100":513,"272,101":911,"272,109":740,"272,116":797,"272,256":420,"272,258":718,"272,260":948,"273,101":468,"273,256":304,"273,262":523,"273,265":547,"273,266":865,"273,279":477,"273,311":479,"273,416":769,"274,101":846,"274,103":482,"274,256":492,"274,32":958,"274,323":762,"275,32":308,"276,116":639,"276,257":570,"276,258":334,"276,260":658,"276,301":357,"276,392":920,"277,324":422,"277,360":628,"277,418":914,"277,459":921,"278,520":673,"278,66":672,"278,67":566,"278,71":677,"278,727":998,"278,76":584,"278,77":696,"278,80":572,"278,83":679,"280,10":869,"280,115":592,"280,116":528,"280,256":674,"280,258":484,"280,259":508,"280,261":669,"281,114":332,"281,261":868,"281,32":534,"282,104":596,"282,112":780,"282,116":507,"282,269":752,"282,276":558,"283,295":700,"285,110":431,"285,263":841,"285,32":689,"286,107":574,"286,108":989,"287,101":703,"287,256":692,"287,265":395,"287,266":931,"288,104":514,"288,256":757,"288,303":491,"288,334":730,"289,102":785,"289,304":770,"289,32":339,"290,256":549,"290,263":683,"290,279":451,"290,286":895,"290,314":823,"290,315":475,"291,32":373,"292,101":706,"292,256":499,"293,109":545,"293,258":971,"293,259":653,"293,275":686,"293,32":716,"296,263":761,"297,101":620,"297,256":517,"297,265":942,"297,336":618,"298,116":784,"298,258":327,"298,659":908,"299,310":630,"300,256":655,"300,32":619,"302,284":930,"303,263":933,"305,108":450,"305,260":818,"306,102":623,"306,118":765,"306,349":587,"307,256":410,"307,262":751,"307,279":749,"309,109":940,"309,112":867,"309,116":943,"312,260":324,"313,357":613,"316,864":999,"317,107":885,"317,260":429,"318,116":800,"318,258":817,"319,256":848,"319,294":995,"319,412":851,"32,100":352,"32,102":413,"32,103":405,"32,104":290,"32,109":287,"32,112":367,"32,115":282,"32,116":391,"32,119":288,"32,257":273,"32,264":455,"32,279":835,"32,281":408,"32,283":399,"32,284":434,"32,289":487,"32,300":791,"32,313":894,"32,327":858,"32,332":524,"32,339":634,"32,342":857,"32,73":400,"32,97":293,"32,98":297,"32,99":359,"320,104":559,"321,258":611,"323,32":617,"326,100":788,"326,112":647,"326,258":767,"329,324":590,"329,488":904,"33,10":457,"33,271":463,"33,32":544,"332,32":641,"333,110":786,"333,256":754,"333,305":994,"344,279":977,"348,519":927,"348,593":663,"348,927":928,"351,519":855,"351,67":687,"351,71":433,"355,299":743,"355,368":678,"356,32":790,"359,292":863,"360,350":891,"360,427":883,"362,321":824,"363,109":636,"363,256":750,"363,265":671,"363,299":732,"365,256":758,"365,393":882,"366,100":756,"366,265":866,"366,349":722,"371,68":521,"375,284":682,"376,32":648,"380,118":583,"380,301":768,"382,270":888,"382,427":753,"39,100":859,"39,116":536,"39,259":325,"39,260":384,"39,310":916,"39,84":875,"390,258":884,"396,265":705,"397,256":813,"403,100":974,"404,260":776,"413,439":964,"419,116":661,"419,258":717,"421,274":598,"430,72":731,"430,739":741,"435,260":907,"436,119":729,"44,10":277,"44,32":261,"44,530":879,"443,100":900,"445,409":803,"446,267":665,"447,638":844,"447,73":826,"45,45":530,"450,102":506,"456,275":670,"456,308":779,"458,267":603,"458,82":936,"46,10":331,"46,271":278,"46,32":370,"461,794":988,"464,256":667,"468,299":748,"473,574":854,"474,32":520,"494,72":642,"496,442":969,"501,261":801,"509,76":901,"521,400":585,"527,310":896,"536,279":815,"540,107":720,"546,308":723,"548,84":960,"553,257":713,"558,308":973,"579,110":695,"58,10":267,"58,32":541,"589,923":924,"59,10":329,"59,32":375,"606,327":975,"63,10":481,"63,271":353,"63,32":632,"644,585":725,"646,615":649,"649,778":829,"65,110":312,"65,259":569,"65,267":469,"65,66":710,"65,76":889,"65,77":792,"65,78":442,"65,80":922,"65,82":371,"65,85":605,"66,101":984,"66,265":932,"66,336":483,"67,292":783,"673,725":979,"68,645":646,"68,87":874,"687,663":775,"69,100":905,"69,267":542,"69,32":615,"69,348":747,"69,358":838,"69,532":726,"69,76":509,"69,78":348,"69,82":446,"69,83":816,"69,84":458,"69,874":876,"694,346":953,"70,268":488,"70,630":727,"71,111":805,"712,495":967,"72,256":691,"72,285":946,"72,348":795,"72,97":588,"724,741":742,"726,665":739,"73,102":640,"73,110":627,"73,258":872,"73,259":840,"73,267":599,"73,282":668,"73,287":892,"73,288":498,"73,32":313,"73,338":385,"73,39":546,"73,402":519,"73,545":633,"73,67":494,"73,78":351,"73,83":899,"75,267":638,"75,433":474,"76,73":755,"76,79":724,"77,265":533,"77,272":787,"77,69":918,"777,32":836,"781,32":782,"783,302":959,"79,102":702,"79,114":853,"79,261":688,"79,267":338,"79,70":781,"79,76":496,"79,77":917,"79,78":548,"79,82":447,"795,809":811,"805,260":950,"81,773":777,"82,427":992,"82,612":809,"82,642":644,"82,706":956,"82,79":589,"826,969":970,"83,267":358,"83,269":810,"83,84":532,"84,104":307,"84,269":418,"84,334":459,"84,385":593,"84,72":880,"85,358":402,"85,67":430,"85,747":773,"85,75":645,"85,77":887,"86,775":778,"87,104":360,"87,256":852,"87,303":660,"87,334":571,"89,262":581,"89,267":680,"89,32":612,"89,844":845,"918,338":923,"936,731":937,"937,385":939,"97,100":518,"97,102":938,"97,103":445,"97,107":799,"97,108":374,"97,109":467,"97,110":266,"97,112":837,"97,114":272,"97,115":622,"97,116":319,"97,119":721,"97,121":437,"97,258":311,"97,259":354,"97,264":409,"97,265":407,"97,275":493,"97,308":812,"97,32":573,"97,349":510,"97,350":610,"97,381":919,"97,701":878,"97,98":567,"97,99":871,"970,402":972,"98,101":369,"98,108":690,"98,111":890,"98,256":389,"98,263":832,"98,265":471,"98,336":486,"98,343":698,"98,411":659,"99,101":364,"99,104":294,"99,105":531,"99,107":381,"99,116":504,"99,256":372,"99,266":606,"99,274":435,"99,292":397,"99,302":734,"99,443":847,"99,97":454},"Encoder":{"\u0000":0,"\u0001":1,"\u0002":2,"\u0003":3,"\u0004":4,"\u0005":5,"\u0006":6,"\u0007":7,"\b":8,"\t":9,"\n":10,"\n\n":271,"\nA":955,"\nAnd ":808,"\nThe ":957,"\nTo ":709,"\u000b":11,"\f":12,"\r":13,"\u000e":14,"\u000f":15,"\u0010":16,"\u0011":17,"\u0012":18,"\u0013":19,"\u0014":20,"\u0015":21,"\u0016":22,"\u0017":23,"\u0018":24,"\u0019":25,"\u001a":26,"\u001b":27,"\u001c":28,"\u001d":29,"\u001e":30,"\u001f":31," ":32," I":400," I ":894," a":293," a ":716," all":686," am":545," and ":434," as ":653," at ":971," b":297," be":620," be ":517," but ":618," by ":942," c":359," com":863," d":352," f":413," for":791," from":964," g":405," h":290," he ":549," hea":895," hear":823," her":683," him":475," his ":451," in":455," is ":835," it ":857," m":287," man":931," me":703," me ":692," my ":395," not ":858," of":487," of ":634," p":367," s":282," sh":596," sha":558," shall ":973," so ":752," sp":780," st":507," t":391," th":273," than":865," that ":479," the":468," the ":304," their":748," them":769," this ":477," thou":523," thy ":547," to ":399," w":288," we ":757," wh":514," what ":730," with":491," you":408," your":524,"!":33,"!\n":457,"!\n\n":463,"! ":544,"\"":34,"#":35,"$":36,"%":37,"\u0026":38,"'":39,"'T":875,"'d":859,"'d ":384,"'s ":325,"'st ":916,"'t":536,"'tis ":815,"(":40,")":41,"*":42,"+":43,",":44,",\n":277,",\nAnd ":422,",\nThat ":921,",\nTo ":914,",\nWh":628,", ":261,", and ":503,", my ":764,",--":879,"-":45,"--":530,".":46,".\n":331,".\n\n":278,".\n\nB":672,".\n\nC":566,".\n\nFirst ":998,".\n\nG":677,".\n\nKING ":673,".\n\nKING RICHARD I":979,".\n\nL":584,".\n\nM":696,".\n\nP":572,".\n\nS":679,". ":370,"/":47,"0":48,"1":49,"2":50,"3":51,"4":52,"5":53,"6":54,"7":55,"8":56,"9":57,":":58,":\n":267,":\nA":822,":\nN":862,":\nS":968,":\nTh":963,": ":541,";":59,";\n":329,";\nAnd ":590,";\nFor":904,"; ":375,"; and ":682,"\u003c":60,"=":61,"\u003e":62,"?":63,"?\n":481,"?\n\n":353,"? ":632,"@":64,"A":65,"A:\n":469,"AB":710,"AL":889,"AM":792,"AN":442,"AP":922,"AR":371,"ARD":521,"ARD I":585,"AU":605,"An":312,"And ":324,"As ":569,"B":66,"Be":984,"But ":483,"By ":932,"C":67,"Com":783,"Come, ":959,"D":68,"DUK":646,"DUKE ":649,"DUKE VINCENTIO:\n":829,"DW":874,"E":69,"E ":615,"E:\n":542,"EDW":876,"EEN":747,"EL":509,"ELL":901,"EN":348,"ENENIUS:\n":928,"ENIUS:\n":927,"ENTIO:\n":663,"ER":446,"ER:\n":665,"ES":816,"ES:\n":838,"EST":726,"ESTER:\n":739,"ET":458,"ET:\n":603,"ETR":936,"ETRUCH":937,"ETRUCHIO:\n":939,"Ed":905,"F":70,"First ":727,"For":488,"G":71,"Go":805,"God ":950,"H":72,"HEN":795,"HENRY ":811,"Ha":588,"He ":691,"How":946,"I":73,"I ":313,"I am":633,"I have ":613,"I m":892,"I s":668,"I w":498,"I'":546,"I'll ":723,"I:\n":599,"IC":494,"ICH":642,"IN":351,"INC":687,"INCENTIO:\n":775,"ING":433,"INIUS:\n":855,"IO:\n":385,"IS":899,"IUS:\n":519,"If":640,"In":627,"Is ":840,"It ":872,"J":74,"K":75,"K:\n":638,"KING":474,"KING ":520,"L":76,"LI":755,"LO":724,"LOUCESTER:\n":742,"M":77,"ME":918,"MEO:\n":923,"Mar":787,"My ":533,"N":78,"O":79,"O, ":688,"O:\n":338,"OF":781,"OF ":782,"OL":496,"OLAN":969,"OM":917,"ON":548,"ONT":960,"OR":447,"ORI":826,"ORIOLAN":970,"ORIOLANUS:\n":972,"ORK:\n":844,"Of":702,"Or":853,"P":80,"Q":81,"QUEEN":777,"QUEEN ":836,"R":82,"RICH":644,"RICHARD I":725,"RO":589,"ROMEO:\n":924,"RY ":809,"Rich":992,"Rome":956,"S":83,"S:\n":358,"ST":532,"So ":810,"T":84,"TH":880,"TIO:\n":593,"Th":307,"That ":459,"The ":410,"This ":749,"Thou":751,"To ":418,"U":85,"UC":430,"UCESTER:\n":741,"UCH":731,"UEEN":773,"UK":645,"UM":887,"US:\n":402,"V":86,"VINCENTIO:\n":778,"W":87,"We ":852,"Wh":360,"What ":571,"Which":883,"Why, ":891,"With":660,"X":88,"Y":89,"Y ":612,"Y:\n":680,"YORK:\n":845,"You":581,"Z":90,"[":91,"\\":92,"]":93,"^":94,"_":95,"`":96,"a":97,"a ":573,"ab":567,"ac":871,"ack":919,"ad":518,"af":938,"ag":445,"again":803,"ain":409,"ak":799,"ake ":510,"al":374,"all":493,"all ":812,"am":467,"an":266,"an ":555,"and":417,"and ":284,"and, ":965,"ang":631,"ant":616,"ant ":906,"any ":719,"ap":837,"ar":272,"ard":513,"ard ":948,"are":911,"are ":420,"arm":740,"art":797,"art ":718,"as":622,"as ":354,"at":319,"at ":311,"atch":995,"ate ":848,"ation":851,"augh":878,"aw":721,"ay":437,"ay ":407,"ay, ":610,"b":98,"be":369,"be ":389,"ber":832,"bl":690,"ble ":659,"bo":890,"bro":698,"but ":486,"by ":471,"c":99,"ca":454,"can":606,"cannot ":975,"ce":364,"ce ":372,"ce, ":734,"ch":294,"ci":531,"ck":381,"com":397,"come ":813,"con":435,"cond ":907,"coun":847,"ct":504,"d":100,"d\n":539,"d ":260,"d,\n":715,"d, ":346,"day":981,"de":543,"dea":553,"death":713,"der":580,"des":849,"di":404,"did ":776,"dis":825,"do":681,"do ":497,"du":831,"dy ":952,"e":101,"e\n":394,"e ":256,"e to ":591,"e'":843,"e's ":693,"e,\n":452,"e, ":302,"e, and ":930,"e.\n":966,"e.\n\n":438,"e?\n\n":976,"ea":286,"eak":574,"eal":989,"ear":314,"ec":814,"econd ":951,"ect":771,"ed":424,"ed ":340,"ee":326,"eed":788,"een":794,"eep":647,"eet ":767,"ef":760,"el":401,"ell":388,"ell ":766,"em":416,"en":270,"en ":535,"ence":708,"ence ":714,"end":495,"end ":637,"ent":362,"ent ":526,"entle":824,"ep":704,"er":263,"er ":322,"ere":556,"ere ":344,"ere is ":977,"erv":609,"es":280,"es\n":869,"es ":345,"es, ":669,"ese ":674,"ess":592,"ess ":508,"est":528,"est ":484,"et":453,"et ":448,"ev":763,"ex":676,"ey":624,"f":102,"fa":355,"fair":743,"father":678,"fear":897,"fi":856,"for":300,"for ":619,"fore ":655,"fri":712,"friend":967,"from":561,"ful":650,"g":103,"gain":886,"ge":737,"ge ":820,"gh":318,"ght":800,"ght ":817,"give ":804,"go":807,"go ":926,"good ":565,"gra":738,"gu":954,"h":104,"ha":276,"had ":658,"hat":639,"hat ":334,"hat, ":920,"hath":570,"have ":357,"he ":398,"hea":621,"hear":525,"her":478,"her ":830,"here ":929,"him":423,"his ":432,"how":925,"i":105,"ic":595,"ich":427,"ick":656,"id":440,"id ":614,"if":415,"ig":579,"igh":419,"ight":661,"ight ":717,"ign":695,"il":383,"ill":387,"ill ":425,"im":315,"in":264,"in ":550,"in the ":707,"ince ":961,"ind":666,"ind ":772,"ine ":577,"ing":291,"ing ":373,"ink":552,"ion":412,"ip":945,"ir":299,"irst ":630,"is":320,"is ":279,"ish":559,"ist":635,"it":316,"it ":342,"ith":303,"ither":933,"itiz":999,"iv":733,"ive ":562,"iz":864,"j":106,"jo":839,"k":107,"ke ":349,"king":511,"know":500,"l":108,"la":341,"land":877,"ld ":337,"le":321,"le ":411,"lea":512,"less ":913,"let ":611,"li":306,"lif":623,"like ":587,"liv":765,"ll":275,"ll ":308,"lo":380,"long":898,"loo":540,"look":720,"lor":694,"lord":568,"lord, ":953,"lov":583,"love ":768,"ly":947,"ly ":428,"m":109,"ma":366,"mad":756,"make ":722,"man":444,"mar":819,"may ":866,"me":594,"me ":378,"men":842,"ment":949,"mo":527,"mor":464,"more ":667,"most ":896,"much":873,"must ":935,"my ":328,"n":110,"na":986,"ne":436,"ness ":996,"new":729,"ng":827,"no":298,"no ":466,"noble ":908,"not":784,"not ":327,"now":386,"o":111,"o ":269,"o'":798,"o, ":485,"od":654,"of":289,"of ":339,"of the ":770,"off":785,"ol":403,"old":974,"old ":625,"oll":962,"om":292,"ome":706,"ome ":499,"on":274,"on ":958,"one":846,"one ":492,"ong":482,"onour":762,"oo":317,"ood ":429,"ook":885,"op":516,"or":268,"or ":600,"ord":426,"ord ":910,"ore ":821,"orn":870,"ort":893,"ose ":697,"ost ":881,"ot ":944,"oth":480,"other":834,"ou":262,"ough":597,"oul":578,"ould ":393,"oun":443,"ound":900,"our":323,"our ":617,"ous":833,"ous ":537,"out ":601,"ow":285,"ow ":689,"ower":841,"own":431,"p":112,"pe":991,"per":582,"pla":796,"po":460,"pp":662,"pr":586,"pra":860,"pres":934,"pro":607,"q":113,"qu":461,"queen":988,"r":114,"ra":330,"ran":551,"re":309,"rea":390,"reat ":884,"rem":940,"ren":997,"rep":867,"res":449,"ret":943,"ri":335,"ro":343,"rom":439,"rong":978,"row":575,"rown":746,"ru":414,"ry":982,"ry ":699,"s":115,"s\n":472,"s ":259,"s and ":736,"s of":915,"s of ":987,"s to ":912,"s,\n":502,"s, ":377,"sa":554,"sc":980,"se":305,"se ":379,"sed ":818,"sel":450,"self":506,"sh":365,"sha":456,"shall":670,"shall ":779,"she ":758,"should ":882,"sir":501,"sir, ":801,"so":651,"so ":522,"some ":902,"son":560,"sp":473,"speak":854,"ss":985,"st":296,"st ":310,"ster":761,"su":489,"sw":563,"t":116,"t\n":576,"t ":258,"t, ":392,"take ":828,"ted ":993,"tell":941,"ter":406,"ter ":903,"th":257,"than":774,"that":983,"that ":361,"the":363,"the ":295,"thee ":750,"their":732,"them":636,"then":684,"ther":368,"ther ":728,"they ":671,"thing":789,"think":909,"this ":476,"thou":376,"thou ":648,"thy ":462,"tim":664,"to":529,"to ":283,"to the ":700,"tru":657,"tt":652,"tw":861,"u":117,"uch":557,"ugh":701,"ul":465,"um":629,"un":347,"up":421,"upon":598,"ur":333,"ure ":754,"urn":786,"urse":994,"us":441,"us ":505,"use ":802,"ust":850,"ust ":564,"ut":490,"ut ":336,"v":118,"ve ":301,"ven":470,"ver":396,"very ":705,"vi":793,"vo":745,"w":119,"war":643,"was ":604,"we ":538,"well":626,"were ":685,"wh":382,"what ":608,"when":888,"which":753,"wick":990,"will":711,"will ":675,"with":356,"with ":790,"wor":515,"would ":735,"x":120,"y":121,"y\n":602,"y ":265,"y,\n":806,"y, ":350,"yet ":744,"you":281,"you ":534,"you, ":868,"your":332,"your ":641,"yself":759,"z":122,"{":123,"|":124,"}":125,"~":126,"":127,"\ufffd":128,"\ufffd":129,"\ufffd":130,"\ufffd":131,"\ufffd":132,"\ufffd":133,"\ufffd":134,"\ufffd":135,"\ufffd":136,"\ufffd":137,"\ufffd":138,"\ufffd":139,"\ufffd":140,"\ufffd":141,"\ufffd":142,"\ufffd":143,"\ufffd":144,"\ufffd":145,"\ufffd":146,"\ufffd":147,"\ufffd":148,"\ufffd":149,"\ufffd":150,"\ufffd":151,"\ufffd":152,"\ufffd":153,"\ufffd":154,"\ufffd":155,"\ufffd":156,"\ufffd":157,"\ufffd":158,"\ufffd":159,"\ufffd":160,"\ufffd":161,"\ufffd":162,"\ufffd":163,"\ufffd":164,"\ufffd":165,"\ufffd":166,"\ufffd":167,"\ufffd":168,"\ufffd":169,"\ufffd":170,"\ufffd":171,"\ufffd":172,"\ufffd":173,"\ufffd":174,"\ufffd":175,"\ufffd":176,"\ufffd":177,"\ufffd":178,"\ufffd":179,"\ufffd":180,"\ufffd":181,"\ufffd":182,"\ufffd":183,"\ufffd":184,"\ufffd":185,"\ufffd":186,"\ufffd":187,"\ufffd":188,"\ufffd":189,"\ufffd":190,"\ufffd":191,"\ufffd":192,"\ufffd":193,"\ufffd":194,"\ufffd":195,"\ufffd":196,"\ufffd":197,"\ufffd":198,"\ufffd":199,"\ufffd":200,"\ufffd":201,"\ufffd":202,"\ufffd":203,"\ufffd":204,"\ufffd":205,"\ufffd":206,"\ufffd":207,"\ufffd":208,"\ufffd":209,"\ufffd":210,"\ufffd":211,"\ufffd":212,"\ufffd":213,"\ufffd":214,"\ufffd":215,"\ufffd":216,"\ufffd":217,"\ufffd":218,"\ufffd":219,"\ufffd":220,"\ufffd":221,"\ufffd":222,"\ufffd":223,"\ufffd":224,"\ufffd":225,"\ufffd":226,"\ufffd":227,"\ufffd":228,"\ufffd":229,"\ufffd":230,"\ufffd":231,"\ufffd":232,"\ufffd":233,"\ufffd":234,"\ufffd":235,"\ufffd":236,"\ufffd":237,"\ufffd":238,"\ufffd":239,"\ufffd":240,"\ufffd":241,"\ufffd":242,"\ufffd":243,"\ufffd":244,"\ufffd":245,"\ufffd":246,"\ufffd":247,"\ufffd":248,"\ufffd":249,"\ufffd":250,"\ufffd":251,"\ufffd":252,"\ufffd":253,"\ufffd":254,"\ufffd":255},"Decoder":{"0":"\u0000","1":"\u0001","10":"\n","100":"d","101":"e","102":"f","103":"g","104":"h","105":"i","106":"j","107":"k","108":"l","109":"m","11":"\u000b","110":"n","111":"o","112":"p","113":"q","114":"r","115":"s","116":"t","117":"u","118":"v","119":"w","12":"\f","120":"x","121":"y","122":"z","123":"{","124":"|","125":"}","126":"~","127":"","128":"\ufffd","129":"\ufffd","13":"\r","130":"\ufffd","131":"\ufffd","132":"\ufffd","133":"\ufffd","134":"\ufffd","135":"\ufffd","136":"\ufffd","137":"\ufffd","138":"\ufffd","139":"\ufffd","14":"\u000e","140":"\ufffd","141":"\ufffd","142":"\ufffd","143":"\ufffd","144":"\ufffd","145":"\ufffd","146":"\ufffd","147":"\ufffd","148":"\ufffd","149":"\ufffd","15":"\u000f","150":"\ufffd","151":"\ufffd","152":"\ufffd","153":"\ufffd","154":"\ufffd","155":"\ufffd","156":"\ufffd","157":"\ufffd","158":"\ufffd","159":"\ufffd","16":"\u0010","160":"\ufffd","161":"\ufffd","162":"\ufffd","163":"\ufffd","164":"\ufffd","165":"\ufffd","166":"\ufffd","167":"\ufffd","168":"\ufffd","169":"\ufffd","17":"\u0011","170":"\ufffd","171":"\ufffd","172":"\ufffd","173":"\ufffd","174":"\ufffd","175":"\ufffd","176":"\ufffd","177":"\ufffd","178":"\ufffd","179":"\ufffd","18":"\u0012","180":"\ufffd","181":"\ufffd","182":"\ufffd","183":"\ufffd","184":"\ufffd","185":"\ufffd","186":"\ufffd","187":"\ufffd","188":"\ufffd","189":"\ufffd","19":"\u0013","190":"\ufffd","191":"\ufffd","192":"\ufffd","193":"\ufffd","194":"\ufffd","195":"\ufffd","196":"\ufffd","197":"\ufffd","198":"\ufffd","199":"\ufffd","2":"\u0002","20":"\u0014","200":"\ufffd","201":"\ufffd","202":"\ufffd","203":"\ufffd","204":"\ufffd","205":"\ufffd","206":"\ufffd","207":"\ufffd","208":"\ufffd","209":"\ufffd","21":"\u0015","210":"\ufffd","211":"\ufffd","212":"\ufffd","213":"\ufffd","214":"\ufffd","215":"\ufffd","216":"\ufffd","217":"\ufffd","218":"\ufffd","219":"\ufffd","22":"\u0016","220":"\ufffd","221":"\ufffd","222":"\ufffd","223":"\ufffd","224":"\ufffd","225":"\ufffd","226":"\ufffd","227":"\ufffd","228":"\ufffd","229":"\ufffd","23":"\u0017","230":"\ufffd","231":"\ufffd","232":"\ufffd","233":"\ufffd","234":"\ufffd","235":"\ufffd","236":"\ufffd","237":"\ufffd","238":"\ufffd","239":"\ufffd","24":"\u0018","240":"\ufffd","241":"\ufffd","242":"\ufffd","243":"\ufffd","244":"\ufffd","245":"\ufffd","246":"\ufffd","247":"\ufffd","248":"\ufffd","249":"\ufffd","25":"\u0019","250":"\ufffd","251":"\ufffd","252":"\ufffd","253":"\ufffd","254":"\ufffd","255":"\ufffd","256":"e ","257":"th","258":"t ","259":"s ","26":"\u001a","260":"d ","261":", ","262":"ou","263":"er","264":"in","265":"y ","266":"an","267":":\n","268":"or","269":"o ","27":"\u001b","270":"en","271":"\n\n","272":"ar","273":" th","274":"on","275":"ll","276":"ha","277":",\n","278":".\n\n","279":"is ","28":"\u001c","280":"es","281":"you","282":" s","283":"to ","284":"and ","285":"ow","286":"ea","287":" m","288":" w","289":"of","29":"\u001d","290":" h","291":"ing","292":"om","293":" a","294":"ch","295":"the ","296":"st","297":" b","298":"no","299":"ir","3":"\u0003","30":"\u001e","300":"for","301":"ve ","302":"e, ","303":"ith","304":" the ","305":"se","306":"li","307":"Th","308":"ll ","309":"re","31":"\u001f","310":"st ","311":"at ","312":"An","313":"I ","314":"ear","315":"im","316":"it","317":"oo","318":"gh","319":"at","32":" ","320":"is","321":"le","322":"er ","323":"our","324":"And ","325":"'s ","326":"ee","327":"not ","328":"my ","329":";\n","33":"!","330":"ra","331":".\n","332":"your","333":"ur","334":"hat ","335":"ri","336":"ut ","337":"ld ","338":"O:\n","339":"of ","34":"\"","340":"ed ","341":"la","342":"it ","343":"ro","344":"ere ","345":"es ","346":"d, ","347":"un","348":"EN","349":"ke ","35":"#","350":"y, ","351":"IN","352":" d","353":"?\n\n","354":"as ","355":"fa","356":"with","357":"have ","358":"S:\n","359":" c","36":"$","360":"Wh","361":"that ","362":"ent","363":"the","364":"ce","365":"sh","366":"ma","367":" p","368":"ther","369":"be","37":"%","370":". ","371":"AR","372":"ce ","373":"ing ","374":"al","375":"; ","376":"thou","377":"s, ","378":"me ","379":"se ","38":"\u0026","380":"lo","381":"ck","382":"wh","383":"il","384":"'d ","385":"IO:\n","386":"now","387":"ill","388":"ell","389":"be ","39":"'","390":"rea","391":" t","392":"t, ","393":"ould ","394":"e\n","395":" my ","396":"ver","397":"com","398":"he ","399":" to ","4":"\u0004","40":"(","400":" I","401":"el","402":"US:\n","403":"ol","404":"di","405":" g","406":"ter","407":"ay ","408":" you","409":"ain","41":")","410":"The ","411":"le ","412":"ion","413":" f","414":"ru","415":"if","416":"em","417":"and","418":"To ","419":"igh","42":"*","420":"are ","421":"up","422":",\nAnd ","423":"him","424":"ed","425":"ill ","426":"ord","427":"ich","428":"ly ","429":"ood ","43":"+","430":"UC","431":"own","432":"his ","433":"ING","434":" and ","435":"con","436":"ne","437":"ay","438":"e.\n\n","439":"rom","44":",","440":"id","441":"us","442":"AN","443":"oun","444":"man","445":"ag","446":"ER","447":"OR","448":"et ","449":"res","45":"-","450":"sel","451":" his ","452":"e,\n","453":"et","454":"ca","455":" in","456":"sha","457":"!\n","458":"ET","459":"That ","46":".","460":"po","461":"qu","462":"thy ","463":"!\n\n","464":"mor","465":"ul","466":"no ","467":"am","468":" the","469":"A:\n","47":"/","470":"ven","471":"by ","472":"s\n","473":"sp","474":"KING","475":" him","476":"this ","477":" this ","478":"her","479":" that ","48":"0","480":"oth","481":"?\n","482":"ong","483":"But ","484":"est ","485":"o, ","486":"but ","487":" of","488":"For","489":"su","49":"1","490":"ut","491":" with","492":"one ","493":"all","494":"IC","495":"end","496":"OL","497":"do ","498":"I w","499":"ome ","5":"\u0005","50":"2","500":"know","501":"sir","502":"s,\n","503":", and ","504":"ct","505":"us ","506":"self","507":" st","508":"ess ","509":"EL","51":"3","510":"ake ","511":"king","512":"lea","513":"ard","514":" wh","515":"wor","516":"op","517":" be ","518":"ad","519":"IUS:\n","52":"4","520":"KING ","521":"ARD","522":"so ","523":" thou","524":" your","525":"hear","526":"ent ","527":"mo","528":"est","529":"to","53":"5","530":"--","531":"ci","532":"ST","533":"My ","534":"you ","535":"en ","536":"'t","537":"ous ","538":"we ","539":"d\n","54":"6","540":"loo","541":": ","542":"E:\n","543":"de","544":"! ","545":" am","546":"I'","547":" thy ","548":"ON","549":" he ","55":"7","550":"in ","551":"ran","552":"ink","553":"dea","554":"sa","555":"an ","556":"ere","557":"uch","558":" sha","559":"ish","56":"8","560":"son","561":"from","562":"ive ","563":"sw","564":"ust ","565":"good ","566":".\n\nC","567":"ab","568":"lord","569":"As ","57":"9","570":"hath","571":"What ","572":".\n\nP","573":"a ","574":"eak","575":"row","576":"t\n","577":"ine ","578":"oul","579":"ig","58":":","580":"der","581":"You","582":"per","583":"lov","584":".\n\nL","585":"ARD I","586":"pr","587":"like ","588":"Ha","589":"RO","59":";","590":";\nAnd ","591":"e to ","592":"ess","593":"TIO:\n","594":"me","595":"ic","596":" sh","597":"ough","598":"upon","599":"I:\n","6":"\u0006","60":"\u003c","600":"or ","601":"out ","602":"y\n","603":"ET:\n","604":"was ","605":"AU","606":"can","607":"pro","608":"what ","609":"erv","61":"=","610":"ay, ","611":"let ","612":"Y ","613":"I have ","614":"id ","615":"E ","616":"ant","617":"our ","618":" but ","619":"for ","62":"\u003e","620":" be","621":"hea","622":"as","623":"lif","624":"ey","625":"old ","626":"well","627":"In","628":",\nWh","629":"um","63":"?","630":"irst ","631":"ang","632":"? ","633":"I am","634":" of ","635":"ist","636":"them","637":"end ","638":"K:\n","639":"hat","64":"@","640":"If","641":"your ","642":"ICH","643":"war","644":"RICH","645":"UK","646":"DUK","647":"eep","648":"thou ","649":"DUKE ","65":"A","650":"ful","651":"so","652":"tt","653":" as ","654":"od","655":"fore ","656":"ick","657":"tru","658":"had ","659":"ble ","66":"B","660":"With","661":"ight","662":"pp","663":"ENTIO:\n","664":"tim","665":"ER:\n","666":"ind","667":"more ","668":"I s","669":"es, ","67":"C","670":"shall","671":"they ","672":".\n\nB","673":".\n\nKING ","674":"ese ","675":"will ","676":"ex","677":".\n\nG","678":"father","679":".\n\nS","68":"D","680":"Y:\n","681":"do","682":"; and ","683":" her","684":"then","685":"were ","686":" all","687":"INC","688":"O, ","689":"ow ","69":"E","690":"bl","691":"He ","692":" me ","693":"e's ","694":"lor","695":"ign","696":".\n\nM","697":"ose ","698":"bro","699":"ry ","7":"\u0007","70":"F","700":"to the ","701":"ugh","702":"Of","703":" me","704":"ep","705":"very ","706":"ome","707":"in the ","708":"ence","709":"\nTo ","71":"G","710":"AB","711":"will","712":"fri","713":"death","714":"ence ","715":"d,\n","716":" a ","717":"ight ","718":"art ","719":"any ","72":"H","720":"look","721":"aw","722":"make ","723":"I'll ","724":"LO","725":"RICHARD I","726":"EST","727":"First ","728":"ther ","729":"new","73":"I","730":" what ","731":"UCH","732":"their","733":"iv","734":"ce, ","735":"would ","736":"s and ","737":"ge","738":"gra","739":"ESTER:\n","74":"J","740":"arm","741":"UCESTER:\n","742":"LOUCESTER:\n","743":"fair","744":"yet ","745":"vo","746":"rown","747":"EEN","748":" their","749":"This ","75":"K","750":"thee ","751":"Thou","752":" so ","753":"which","754":"ure ","755":"LI","756":"mad","757":" we ","758":"she ","759":"yself","76":"L","760":"ef","761":"ster","762":"onour","763":"ev","764":", my ","765":"liv","766":"ell ","767":"eet ","768":"love ","769":" them","77":"M","770":"of the ","771":"ect","772":"ind ","773":"UEEN","774":"than","775":"INCENTIO:\n","776":"did ","777":"QUEEN","778":"VINCENTIO:\n","779":"shall ","78":"N","780":" sp","781":"OF","782":"OF ","783":"Com","784":"not","785":"off","786":"urn","787":"Mar","788":"eed","789":"thing","79":"O","790":"with ","791":" for","792":"AM","793":"vi","794":"een","795":"HEN","796":"pla","797":"art","798":"o'","799":"ak","8":"\b","80":"P","800":"ght","801":"sir, ","802":"use ","803":"again","804":"give ","805":"Go","806":"y,\n","807":"go","808":"\nAnd ","809":"RY ","81":"Q","810":"So ","811":"HENRY ","812":"all ","813":"come ","814":"ec","815":"'tis ","816":"ES","817":"ght ","818":"sed ","819":"mar","82":"R","820":"ge ","821":"ore ","822":":\nA","823":" hear","824":"entle","825":"dis","826":"ORI","827":"ng","828":"take ","829":"DUKE VINCENTIO:\n","83":"S","830":"her ","831":"du","832":"ber","833":"ous","834":"other","835":" is ","836":"QUEEN ","837":"ap","838":"ES:\n","839":"jo","84":"T","840":"Is ","841":"ower","842":"men","843":"e'","844":"ORK:\n","845":"YORK:\n","846":"one","847":"coun","848":"ate ","849":"des","85":"U","850":"ust","851":"ation","852":"We ","853":"Or","854":"speak","855":"INIUS:\n","856":"fi","857":" it ","858":" not ","859":"'d","86":"V","860":"pra","861":"tw","862":":\nN","863":" com","864":"iz","865":" than","866":"may ","867":"rep","868":"you, ","869":"es\n","87":"W","870":"orn","871":"ac","872":"It ","873":"much","874":"DW","875":"'T","876":"EDW","877":"land","878":"augh","879":",--","88":"X","880":"TH","881":"ost ","882":"should ","883":"Which","884":"reat ","885":"ook","886":"gain","887":"UM","888":"when","889":"AL","89":"Y","890":"bo","891":"Why, ","892":"I m","893":"ort","894":" I ","895":" hea","896":"most ","897":"fear","898":"long","899":"IS","9":"\t","90":"Z","900":"ound","901":"ELL","902":"some ","903":"ter ","904":";\nFor","905":"Ed","906":"ant ","907":"cond ","908":"noble ","909":"think","91":"[","910":"ord ","911":"are","912":"s to ","913":"less ","914":",\nTo ","915":"s of","916":"'st ","917":"OM","918":"ME","919":"ack","92":"\\","920":"hat, ","921":",\nThat ","922":"AP","923":"MEO:\n","924":"ROMEO:\n","925":"how","926":"go ","927":"ENIUS:\n","928":"ENENIUS:\n","929":"here ","93":"]","930":"e, and ","931":" man","932":"By ","933":"ither","934":"pres","935":"must ","936":"ETR","937":"ETRUCH","938":"af","939":"ETRUCHIO:\n","94":"^","940":"rem","941":"tell","942":" by ","943":"ret","944":"ot ","945":"ip","946":"How","947":"ly","948":"ard ","949":"ment","95":"_","950":"God ","951":"econd ","952":"dy ","953":"lord, ","954":"gu","955":"\nA","956":"Rome","957":"\nThe ","958":"on ","959":"Come, ","96":"`","960":"ONT","961":"ince ","962":"oll","963":":\nTh","964":" from","965":"and, ","966":"e.\n","967":"friend","968":":\nS","969":"OLAN","97":"a","970":"ORIOLAN","971":" at ","972":"ORIOLANUS:\n","973":" shall ","974":"old","975":"cannot ","976":"e?\n\n","977":"ere is ","978":"rong","979":".\n\nKING RICHARD I","98":"b","980":"sc","981":"day","982":"ry","983":"that","984":"Be","985":"ss","986":"na","987":"s of ","988":"queen","989":"eal","99":"c","990":"wick","991":"pe","992":"Rich","993":"ted ","994":"urse","995":"atch","996":"ness ","997":"ren","998":".\n\nFirst ","999":"itiz"},"VocabSize":1000}